#version: 0.2
ã Ģ
ãĢ Ĥ
¼ Į
ï ¼Į
ä ¸
ä º
å ¤
æ ľ
æ Ĺ
æ ĺ
å į
è Ĭ
å ı
å °
é £
å Ĳ
ãĢ ģ
å ®
å ħ
é ĩ
æ Ŀ
è ¿
èĬ ±
äº º
ç »
ä ½
æ ĸ
ä »
é£ İ
å ¹
æ ¸
å ¯
å ĩ
æ µ
å ½
å Ī
é Ľ
ä ¹
æĺ ¥
é Ĺ
æ Ń
æ ĥ
ä¸ į
ä ¼
ç º
ç Ľ
ä¸ Ģ
å ¾
å ¿
é ĺ
æ Ģ
æ ±
é ¦
å ¦
ç ľ
ç Ķ
æ ¢
å ±
è §
å Ń
æ °
è ¡
æĹ ł
è °
æ Ħ
å Ľ
è ¯
æ ģ
ç İ
æľ Ī
å º
æĿ ¥
å ¸
äº ĳ
æ Ļ
æ Ľ
å¤ ©
é Ŀ
å ¼
è ½
æĹ ¶
å İ
æ Ī
å ¥
ç §
æ ķ
æ ³
é¦ Ļ
æ ·
é ħ
æ ŀ
é Ĩ
ç ¬
è Ĳ
é ģ
æ± Ł
çĽ ¸
æ° ´
çİ ī
å± ±
æľ ī
å¤ Ħ
å ľ
çº ¢
æ ²
é ķ
å¹ ´
å½ Ĵ
é ľ
æ ī
é ļ
æ¸ ħ
ç ĥ
å Ĩ
æ ļ
ä½ ķ
æ ¥
æĺ ¯
å ·
é ¸
è İ
é Ģ
å¦ Ĥ
éĽ ¨
è Ī
å Ģ
æĥ ħ
æĹ ¥
æ ¡
åİ »
ç ¿
é Ļ
ä¸ Ĭ
æ Ł
æ ¬
å £
éķ ¿
æ »
éħ Ĵ
è į
ç Ł
å ī
éĩ ĳ
éĩ Į
ä ¾
æ¥ ¼
éĨ ī
å¤ ľ
è µ
åŃ Ĳ
è° ģ
æ Ĭ
ä¸ Ń
è ¥
åį ĥ
ç ©
æŃ Į
è ĭ
è ®
è ī
æ¢ ¦
æĦ ģ
æ ĭ
é£ ŀ
åį Ĺ
å° ı
è Ģ
å¿ ĥ
å¾ Ĺ
æ º
å¯ Ĵ
è ĩ
ç§ ĭ
çĶ Ł
æĽ ´
æľ ª
çĥ Ł
å ł
è§ ģ
é ĥ
æĺ İ
è¥ ¿
åī į
æĸ °
å£ °
é »
å° ½
ä» Ĭ
ç ķ
æ» ¡
å ²
ç Ļ
éĩ į
æ ł
è ĥ
äº ĭ
è¡ Į
ä¸ ľ
å¥ ½
å ¨
è ¾
éĿ Ĵ
æ· ±
ä¼ ¼
å¤ ļ
ç© º
æĸ Ń
æ ¶
å Ĭ
ç «
ç ¦
èĬ ³
è½ »
åĽ ŀ
é ¡
ä¸ İ
ç¬ ĳ
æ ®
è Ĥ
ä ¿
æŁ ³
ã ĥ
èĲ ½
é «
æµ ģ
ãĥ »
è ¢
æº ª
çŁ ¥
å¤ ´
èĩ ª
ä» Ļ
æĢ Ŀ
é ¢
ç Ĥ
ç ģ
ç ¼
ç ®
æ ´
ä¸ ĭ
æŃ ¤
ç ¾
çľ ĭ
ä¸ º
é ¹
æģ ¨
æĦ ı
åĲ Ľ
è ·
å® ¶
ä¸ ĩ
åħ ī
éĹ ²
é« ĺ
é Ķ
åľ ¨
ç ¢
è¿ ĺ
éļ ¾
ç ī
ç¿ ł
â ĸ
âĸ ¡
æĹ §
åı Į
åĲ ĳ
ç» ¿
ç ½
é» Ħ
èĢ ģ
å¸ ĺ
çĶ »
åĪ Ŀ
æĪ Ĳ
è¿ ľ
ç ª
å Į
åĪ «
åı Ī
æ¢ ħ
æ Ĥ
éĽ ª
åĪ Ĩ
è· ¯
æŀ Ŀ
å ģ
ç ´
èİ «
å Ł
æ¸ ¸
ä¸ ī
ç Ĳ
ç Ĭ
ç ĭ
é ©
åĩ ł
éĺ ³
æĪ ĳ
å¼ Ģ
éģ ĵ
ç ı
å° ĳ
èį ī
èī ²
å¹ ³
åĪ °
åį İ
åħ °
æľ Ľ
æ³ ¢
æ² Ļ
æ¬ ²
æ İ
é¡ »
å Ĥ
è¯ Ń
å Ĵ
é Ĵ
ç ²
æ ¹
è ı
éĹ ´
ç¦ »
æ Į
æĻ ļ
çķ Ļ
å Ķ
åŁ İ
æ ¨
ç ĩ
æ Ķ
ç ĸ
çĬ ¹
åĲ İ
éĹ ®
è¿ ĩ
åº Ķ
å½ ±
çĩ ķ
è ´
æ¬ ¢
è Ŀ
åĢ ļ
æ® ĭ
è Ļ
ç¢ §
æ³ ª
éĺ ĳ
å½ ĵ
éĹ ¨
é ĵ
å· ²
ç ¥
è¡ £
åı ¶
æĸ ľ
å¤ ĸ
æľ Ŀ
æ ¼
å¦ Ĩ
å° ĺ
å Ŀ
çĤ ¹
ç ħ
éľ ²
æ¡ ĥ
å¯ ¹
èµ ·
æĻ ĵ
åĲ Į
ä¹ Ĳ
å ŀ
çĻ ½
çľ ī
å ĳ
ç» Ĩ
é ¬
æļ ®
åį ´
çľ ¼
ä¸ ¤
åı ª
ä¸ ´
è ħ
åį ģ
å® ¢
æĽ ²
è ĵ
åľ °
çª Ĺ
åħ ¥
ç ļ
èĪ ŀ
è ĳ
åı °
ä¼ ĳ
é Ł
åį Ĭ
å° Ĭ
çı ł
å¯ »
è Ħ
éĺ ´
ç½ Ĺ
ç ĳ
åħ ±
ä¾ Ŀ
è° ĥ
æī ĭ
æ ½
èĤ ł
è Ľ
æŃ £
åº Ń
çħ §
ç ł
åĲ ¹
åŀ Ĥ
å° Ĩ
éĥ ½
è £
é Ń
å¨ ĩ
èĿ ¶
ç Ń
ä¿ ¡
é ª
ä½ ³
è¾ ¹
éľ ľ
å ķ
é Ĥ
åĩ ī
çĸ ı
äº Ĩ
ç Ĺ
å¾ ®
æĬ Ĭ
æ· ¡
é ¥
ä¹ Ł
æļ Ĺ
æľ ¨
ä» İ
æ° Ķ
éĿ ¢
åĴ Į
ç² ī
åĲ į
è¿ ĳ
ä½ķ å¤Ħ
éĥ İ
åŃ ¤
âĸ¡ âĸ¡
æ± ł
å¿ Ĩ
å Ħ
ä¾ ¿
å² ģ
æľ ±
åĩ ¤
ä¹ ±
ç Ħ
åŃ Ĺ
æ¨ ª
æ ¯
çľ Ł
æķ £
æµ £
çĭ ¬
åĦ ¿
åł ª
è ĸ
è® °
åł Ĥ
æ¶ Ī
åĨ ·
é ¾
æĥ Ĭ
é© ¬
å® «
çģ ¯
è ¶
æļ ĸ
ä¸ Ķ
æŀ Ĺ
æ² Ī
æºª æ²Ļ
æĻ ¯
æµ£ æºªæ²Ļ
æĽ ¾
è½ ¬
ç Ŀ
æ¡ ¥
åı ¤
æĿ ¯
éļ ı
¨ Ģ
æ ĳ
ä½ ľ
æµ ħ
è§ £
æŀ ķ
å® ¹
æ±Ł åįĹ
å ĸ
ç» £
æ į
æ¸ Ĳ
æģ ĭ
ä» ¤
æĿ ¨
æķ °
æķ Ļ
çĦ ¶
æľ Ł
åı ¯
éĢ ģ
éĢ ¢
é¬ ĵ
å¾ ħ
åĬ ¨
æĥ ³
ä¸ ª
ç Ī
äº ī
å §
æĥ ľ
èĪ Ł
èĥ ½
éŃ Ĥ
å¿ µ
è§ ī
åį ·
å¹ ½
æķ ħ
è¯ ´
çĻ ¾
éĵ ¶
ç® ¡
è º
åĩ ı
é¦ Ģ
èİ º
çĽ¸ æĢĿ
éĻ ¢
åĩ Ń
æĹ ©
æ¸ Ķ
åĩ Ŀ
ä¼ ļ
éĶ ¦
èĳ Ĺ
æľ¨ åħ°
åº ¦
è Į
æµ ®
æ Ĳ
è ķ
ä½ ı
éĽ ģ
å¸ ¦
äº Ń
æµ ·
è¢ ĸ
ä½ İ
å¯ Ħ
åı ĳ
æĻ ´
ç¥ ŀ
ä¹ ¦
åħ Ī
æł ĳ
éĨ Ĵ
é¾ Ļ
æľ¨åħ° èĬ±
æ¹ ĸ
å¥ Ī
è® ¸
èī ³
èº «
ä¹ ¡
çł ´
å ¢
åĽ Ń
ä¸ľ é£İ
éģ į
ä¸ Ŀ
æ ħ
å® ļ
æµ ĵ
åĲ ¬
å¼ ¦
å ³
é¦ ĸ
è ¸
åı ĸ
èĽ ®
ä¸ ĸ
åĲ Ł
è¯ Ĺ
æ £
å¼ Ħ
çĿ ¡
è¿ Ł
ç °
é ¼
ç« ¹
æµ ª
éĿ Ļ
ç´ ł
åķ ¼
å ¡
è ľ
ä¼ ł
åĤ ¬
è ģ
ä¼ Ĭ
åħ ³
è¢ «
ç¾ İ
èĸ Ħ
æĺ Ł
äº Ķ
ä½ Ĩ
æĢ ¨
æī į
å· ŀ
çĲ ¼
å® ī
æĺ¥ é£İ
æģĭ èĬ±
æĺ ı
çĳ ¶
èĿ¶ æģĭèĬ±
åĩ º
çº ¦
åº ķ
åĨ °
å «
åİ Į
èĪ ¹
èĥ ľ
éĤ £
éĩ ĩ
æĸ ¹
éĹ »
å½Ĵ åİ»
è ¨Ģ
æĺ ĵ
æĢ ľ
é¸ ³
© èĲ
é£ ĺ
è¿ ŀ
å½ ©
æĸ Ĺ
èı ©èĲ
èı©èĲ ¨
çº ¤
æĢ Ģ
å± ı
èĭ ¦
åĿ Ĳ
çĽ Ī
çĥ Ľ
éĿ ŀ
æ ı
ç ĺ
èı©èĲ¨ èĽ®
è ¦
ç» ķ
éľ ŀ
æ² ³
ç ¯
é¥ ®
ç µ
ä¸ ¹
å® Ŀ
çĭ Ĥ
çµ ®
åįĥ éĩĮ
å ĵ
æĺ ł
é£İ æµģ
éļ Ķ
èİ ²
çİī æ¥¼
æ¥ ļ
è Ĺ
æŃ ¥
çŁ Ń
æ §
ç Ĩ
çĺ ¦
èĬ Ĥ
ç´ «
å® ´
åħ ¬
å¹ ²
åĸ ľ
æ ª
åĢ Ĵ
ç® Ĺ
éŁ ³
è¯ ķ
å¸ ¸
çĪ ±
æĲ º
æľ Ģ
å¹ ķ
èĲ §
äºº éĹ´
èĭ ±
å² ¸
åĮ Ĺ
å¯ ¿
æĶ ¶
§ é¸
çĽ ®
éĺ ģ
éģ ¥
äº Į
æİ ©
æ° ¸
å½Ĵ æĿ¥
çķ Ķ
é¹ §é¸
é¹§é¸ ª
ç» Ī
å¾ Ģ
ä¼ ´
± ¼
é ±¼
é¢ ľ
åĩı åŃĹ
æĿ ı
è° ¢
åĽ ł
èį ·
èħ °
å°Ĭ åīį
åĩ Ħ
ä¹ Ŀ
çĶ ļ
åľ Ĩ
é ŀ
ç» Ľ
å¼ ķ
çİ ĭ
æĺİ æľĪ
æĳ ĩ
å® µ
ä¹ ħ
å¥ ³
åĢ ¾
æĪ ·
æĮ ĩ
æ¼ ı
æĸ ĩ
å¿ ĺ
é¢ ĳ
åĮ Ĩ
èķ Ĭ
é º
éĽ ¾
æĬ ĺ
è¦ ģ
å¯ Ĥ
æĭ Ĥ
æĿ ¾
åĽ Ľ
çĽ¸ éĢ¢
ç¿ »
çģ «
çī ĩ
å ĭ
ç ĵ
ä½ ¿
ä¼ ¤
é¸ ¾
æĶ ¾
ç¼ ķ
ç» ª
ç» ®
å¤ļ æĥħ
èĬ³ èįī
åĽŀ é¦ĸ
æ´ ŀ
ç» ĵ
é¸ ¿
æ¶ ¯
è¸ ı
çİīæ¥¼ æĺ¥
åĲ ´
æ· »
çĤ ī
æ ¦
çľ ł
åĨ µ
é¼ ĵ
å¡ ĺ
æ± ī
éĻ Ĳ
å¤ļ å°ĳ
çī ©
å¤ ķ
ä» ĸ
ç§ Ģ
åĩıåŃĹ æľ¨åħ°èĬ±
å° ļ
åħ ´
éĻ Į
ç ¨
ç» Ŀ
ä» »
éķ ľ
åĤ ²
åħ ĥ
æģ ¼
æ±Ł æľĪ
è ±
ä» ĺ
åĽ ½
éĢ ı
èı Ĭ
æģ ģ
é»Ħ æĺı
åĳ ³
é¹§é¸ª å¤©
éļ Ĳ
éĺĳ å¹²
èĵ ¬
è Ł
å¤ §
æĦ ¿
æģ Ĳ
å°ĳ å¹´
ä¸´ æ±Ł
åĬ Ŀ
ä¸´æ±Ł ä»Ļ
åĶ ±
é ½
è® ¡
åį ł
è¿ ¢
çº µ
ç« ¯
éĴ Ĺ
ä¸į è§ģ
èµ ı
çĻ »
æĤ ł
åģ ı
å ©
ç Į
å¿ į
éĻ ħ
æĤ Ħ
çĹ ķ
è¿ ½
æ¢ ģ
å¹´ å¹´
éĻ µ
æ´ Ĺ
ç¾ ŀ
èĦ ¸
éĩ İ
è§ Ĵ
åŃ ¦
åĶ ĩ
æ¸Ķ å®¶
å¢ Ļ
å ª
ä¹ į
æ¡ ĳ
çĹ ħ
æ ĩ
æµ ¦
ç« ĭ
å³ °
æ¸Ķå®¶ åĤ²
å° ±
è¿ ·
æģ ©
è½ ½
å½ĵ æĹ¶
æ½ ®
æ Ĩ
é ²
æĺ ¼
å® ľ
æī ĩ
èĭ ¥
è¥¿ æ±ŁæľĪ
åĬ Ł
èĻ ļ
å¦ Ļ
è¯ ī
æŁ Ķ
éĽ ¶
æģ ¯
å¤© æ¶¯
è½ ¦
æµģ æ°´
åĤ į
æ¼ «
æ¯ Ķ
å »
æĥ Ł
æĢ ħ
æĹł äºº
å¦Ĥ ä»Ĭ
¹ ģ
å¥ ´
çŁ ³
ç ³
æĺ ¨
åı ¹
åĲ Ī
éĩ ı
çĶ ¨
ç¬ Ļ
è¥¿ é£İ
è¿ İ
åĽ °
å£ ¶
èī ¯
æł ·
å¨ ¥
éĶ Ģ
åģ ·
çŃ µ
æĿ İ
ç½ ¢
åĶ ¤
ä¾Ŀ æĹ§
åª ļ
æ ¾
å¤ ª
è§ ŀ
æ³ Ľ
é» Ľ
å¹³ ä¹Ĳ
å« ©
å Ĺ
ç» ı
å· §
ç¿ ģ
ç¦ ģ
çĸ ĳ
ç ¹ģ
ä¸ ¾
çĽ ĺ
æ½ ĩ
æĿ ³
å¾ ģ
å¾ Ħ
æĢ İ
éĶ ģ
æĿ¨ æŁ³
å¯ Ĩ
è¡ ¾
æ³ ī
ç¬ ¼
èĲ ¦
æ¸ħ å¹³ä¹Ĳ
ä½³ äºº
ç¾İ äºº
æĺ¥ èī²
çº ±
èµ ĭ
ä¸ĩ éĩĮ
è´ Ł
æĹł éĻĲ
æķ Ľ
å¨ Ł
é¹ ¤
å¤ ±
é£İ éĽ¨
è¯ Ĩ
åĨ Ļ
æĭ ¥
æ¢ ¢
æ¢ħ èĬ±
æ´ ²
å¹ ¶
æĢ ķ
è§ Ĥ
æĤ ²
æ¹ ¿
ç§ ¦
ç§ į
åł ¤
ä»Ĭ å¤ľ
ä¸ ½
åħ Ń
æĿ ĳ
ä¸į çŁ¥
é¸ ¯
èģ ļ
é¸³ é¸¯
è ŀ
ä¸ Ľ
ç§ »
æŁ ĵ
æĭ Ł
èĲ½ èĬ±
é¹ Ĭ
æ¹ ĺ
æĿ ¡
é£İ æľĪ
é¦ Ĩ
åĨ į
æ» ´
æĬ ¥
è¥ Ł
èĤ Į
çģ µ
æ´ Ĵ
æĤ ´
èĻ ŀ
çĳ ŀ
ç³ »
å ĺ
è Ĵ
æĢ »
ç¼ ĺ
ä¹ ĺ
åŃ Ļ
éģ £
ç« ł
è¢ ħ
éŁ µ
çĽ ´
æ¡ Ĥ
ç® «
æĩ Ĵ
ä¸Ģ æŀĿ
è° ©
åĽ ¢
ç¬ º
èĢ Į
è¶ ³
æĪ ¿
æķħ äºº
äº Ľ
çī µ
è£ Ļ
è ¹
å® ĺ
æĢ ¥
æĦ Ł
æŀ ģ
æ°´ è°ĥ
æł ı
æ·± å¤Ħ
èĤł æĸŃ
æ£ ¹
ç ¨Ģ
Ķ æĤ´
åį §
åį ±
å® ¿
éĽ ķ
çº ·
æĢ ģ
å¸ Ĩ
å¼ º
ç© ·
ç¢ İ
éĩĩ æ¡ĳ
é½ Ĳ
æĨ ĶæĤ´
ä¸ »
å° º
åĢ Ļ
é¡ ¾
æĹ ĭ
åı ¥
å¯ ¸
å¿ ½
è¡ °
åº Ĭ
è® ¤
èĩ ³
è¾ ŀ
æĢĿ éĩı
åĮ Ģ
å½ĵ å¹´
çļ ĩ
è¶ ģ
ç»Ľ åĶĩ
ç Ĵ
ç ŀ
åı ł
éĺ ¶
å¸ Ĳ
æĹ¶ èĬĤ
æĪ ı
ç¬ Ľ
éģ ĩ
æī ¬
æĸŃ èĤł
ä¿ ®
æĸľ éĺ³
éĩĩæ¡ĳ åŃĲ
é¸ £
æ® ¿
æħ ¢
å¤© æ°Ķ
å¦Ĥ æ¢¦
ç¾ ¤
é¬ Ł
æª Ģ
æ¢ §
è¡ «
æī ¶
æ»¡ åºŃ
çĤ¹ ç»ĽåĶĩ
æ¡ĥ èĬ±
çŃ ī
åĲ ¾
æĬ ±
èĭ į
åĮ ĸ
ä¹ Į
è¡ ·
è½ ®
é¸ ¥
èŁ ¾
åĩ Į
çĽ¸ è§ģ
æī «
éĢ ļ
åĢ Ł
æŃĮ å¤´
éª ĳ
æª Ĳ
åı £
éģ ®
éķ¿ å®ī
ç´ ¢
é ³
èĻŀ ç¾İäºº
ä¸Ģ çĤ¹
è¯ į
æ³ ¥
ä½ķ äºĭ
èĭ ĳ
ç¾ ½
ä¸º è°ģ
æį ¢
æı Ĵ
è Ķ
äº ²
åħ ¨
åħ «
äºº çĶŁ
å· Ŀ
ç© ¿
ä»Ĭ æĹ¥
æł ĸ
èĤ ¯
ä¿ ĥ
å¯Ĥ å¯
èĬ Ļ
ä½ ©
çĽ ı
çİ ¯
è½ ¯
å¥ ĩ
æļ Ĥ
éħĴ éĨĴ
éĴ ©
è°ĥ ç¬ĳ
åĩĦ åĩī
åĲ ¦
å¹ ¸
æ¸ º
æŃ ¦
èİ İ
èĪ ¬
åĢ ¦
èį ¡
æĮ Ĥ
åĿ ł
éŁ ¶
æ§ Ľ
æ°´è°ĥ æŃĮå¤´
å¤ į
æ¸ ¡
ä¸Ģ ç¬ĳ
åĽ ¾
è¯ ¯
é¸ Ł
éĢ Ĳ
èĦ ī
éĽ ħ
æ¢ ¨
æķ ´
éģ Ĺ
éľ ģ
åİ» å¹´
ä¾ £
èĥ Į
è¡Į äºº
çĲ ´
åİĮ åİĮ
åĭ ¤
æ»¡åºŃ èĬ³
æ Ĵ
äº ¤
äº ¬
æĹ Ĺ
ä¸Ģ æĽ²
æĹł æĥħ
å¸ Ŀ
è¾ °
åĬ Ľ
æį Ł
åĮĨ åĮĨ
è¿ Ļ
ä¾ µ
åįģ äºĮ
èĵ ī
èĦ Ĥ
èľ Ĥ
èĬĻ èĵī
å ĥ
åį ľ
å® ĩ
ä¸Ģ å¤ľ
å¦ ¨
çĶ ĺ
æ¢ ³
å¸ Ń
å¼ ¹
ç¬ ¬
æ¡ Ĳ
æŃĮ åŃĲ
æĭ į
æº Ĳ
æ¡ĥ æĿİ
æĲº æīĭ
æĺ¨ å¤ľ
ç¬Ļ æŃĮ
åĪ ©
æģ °
å¥½ äºĭ
ç² ¾
è£ ³
æħ µ
èĹ ı
å¾Ģ äºĭ
ģ èĪŁ
ç» µ
ä¸į ä¼¼
å¸ ½
æī ģèĪŁ
æļ ĳ
çķ ª
çĶ» åłĤ
èĵ ¦
è¯ī è¡·
èĢĮ ä»Ĭ
è¯īè¡· æĥħ
æĥ ¹
éĺ µ
éĺ Ķ
çĶ °
è¯ Ŀ
åº Ĩ
æĿ¥ æĹ¶
è¡Į äºĳ
é¢ ĺ
çıł å¸ĺ
âĸ¡âĸ¡ âĸ¡âĸ¡
èĮ «
èģ Ĭ
è¸ı èİİ
èŀ į
è¸ıèİİ è¡Į
æ ¿
éĺ ®
åİ ĭ
åįĹ ä¹¡
åŀĤ æĿ¨
çĨ ı
åįĹä¹¡ åŃĲ
æľ ¬
è¿ ¹
é£İ åħī
æľĪ æĺİ
ç¬ Ķ
çĥ ¦
èİ ±
åĩł æĹ¶
æĮ ģ
è´ ¤
èĽ ¾
åı ĺ
å° ģ
æĸ ¼
åĨ ł
æ® ·
ç¯ ±
å¯Ĥå¯ ŀ
åı Ĥ
æŃ ĩ
éĺ Ļ
å¤ľ æĿ¥
ä½ ł
é£İ æ³¢
æ¸ ©
å¦ į
åĽ ´
å¹´ å°ĳ
ä¸ľ åĲĽ
é¢ ¦
åĪ« åĲİ
èı ²
çĩķ åŃĲ
äº ķ
æµ ĳ
ä¼ «
æ± Ģ
è¡ Ĺ
ç§ °
æ· ®
æ±Ł ä¸Ĭ
ä½ķ æĹ¶
æ¥¼ ä¸Ĭ
èĬ³ èı²
èĻ ½
å§ ¿
å¤ķ éĺ³
èĬ± åīį
å± Ĥ
æ¸ħ æĺİ
åįĹ æŃĮåŃĲ
æ¶ ¦
é»Ħ èĬ±
éĥİ å½Ĵ
çĽĪ çĽĪ
ä¹ ĭ
å± ĭ
è½ ©
å· ¾
æĬ Ľ
åł Ĩ
é» ¯
å² ©
å¹³ çĶŁ
çļ ±
éª ¨
æ¶Ī æģ¯
æĥŁ æľī
å® Ī
äºº åľ¨
å¿ §
çĥ Ĥ
ç¿ ¦
èĭ ı
èĭ Ķ
é£ŀ çµ®
å² Ĥ
è°ĥ åĲį
èĸ °
è®° å¾Ĺ
å®¹ æĺĵ
æ£ ł
å¤± è°ĥåĲį
æ¢¨ èĬ±
Ĩ æĢħ
æĥ ĨæĢħ
æĹł æķ°
å· ¥
èĭ ¹
è® º
æ·± éĻ¢
éĴ ¿
ç¥ Ŀ
åºŃ éĻ¢
èĵ¬ èİ±
åĹ Ł
éĺ® éĥİå½Ĵ
å¤ «
åį Ī
æĸ Ľ
æ¸ ļ
ä¹ ¾
æĺ¥ æĿ¥
è§ ħ
è° Ī
æĹ¶ åĢĻ
éħ Į
ç§ĭ é£İ
éĶ º
åĪĨ ä»ĺ
æ±ł å¡ĺ
ç° Ł
èľ ¡
æĿ ľ
æĸ Ļ
ä¸Ģ å£°
æĢ ¯
å¼ Ĥ
æ±Ł åŁİ
ä½ķ äºº
é¸ ¡
é¸ ¦
èµ °
æĭ ¼
æĭ Ī
èĢ ³
å² Ń
åĪĨ æĺİ
åģ ľ
è´ µ
èĿ ī
åĳ ¼
åįģ éĩĮ
é¥ ¶
ç¥ŀ ä»Ļ
ç° ª
åĵ į
å» Ĭ
æ®· åĭ¤
ç ¤
å½ »
éĹ Ń
å± ķ
æĹł å¤Ħ
æ¥¼ åı°
åĬ ³
è¢ Ĥ
å¸ĺ å¹ķ
è ¤
èĬ± æŀĿ
ä¸į æĪĲ
æĢ ª
çĶ ±
å¸ Ĥ
å¸ ı
æĻ ķ
æķ §
æ² ¾
æ¸ħ é£İ
ç¼ ĵ
éĴ ±
è¶ Ĭ
ç¨ ³
æ¾ Ħ
çŃī éĹ²
ç» ĥ
åĩ Ģ
éĺ »
æĹł è¯Ń
æĹł è¨Ģ
éĻ ¤
æ»¡ æ±Ł
èĥ ¡
éĿĴ å±±
é¡ ¿
å¡ ŀ
ä½¿ åĲĽ
å ´
å¥ ı
éĩĳ ç¼ķ
è¥¿ æ¹ĸ
åįģ åĪĨ
åı¯ æĢľ
æĤł æĤł
äº ¦
æľ º
åĲ Ĳ
ä» į
é£İ åĲ¹
çĽ Ľ
ä¸Ģ çīĩ
å¾ ¡
æĹł è®¡
å¤© ä¸Ĭ
å½Ĵ è·¯
åī ©
ä¿ ±
æ´ Ľ
åĪ« æĿ¥
æĶ Ģ
ç¢§ äºĳ
çļ Ĩ
å¿Ĩ æ±ŁåįĹ
è¸ ª
éŀ į
å¥´ å¨ĩ
ç» ¡
æĸ ĳ
åĪ ĩ
åĪ ĺ
ä¸į æĺ¯
çĽ ĸ
å¾ Ĭ
æ¸ħ é¦Ļ
å£ «
èį £
ç§ĭ åįĥ
å¨ ĺ
èĩª æľī
é¹ Ń
åģ ¶
åĴ ı
çļ ĵ
ä»İ æĿ¥
ç° ĩ
çĨ Ł
è ²
æĺ Ķ
é£ Ł
åĲ «
å® ģ
éĹ ·
å±± æºª
åľ Ł
éľ Ń
åĨ ī
åī ª
é«ĺ æ¥¼
åĪ« ç¦»
åįģ å¹´
å®ļ é£İæ³¢
éŀ Ń
è± ª
å© µ
¥ åŃĲ
èĬ± å¼Ģ
äºº äºº
ä¸į å¦Ĥ
æĢ §
å¼ ł
çĽ¸ å¯¹
çİī äºº
æ² ¡
åĢ ©
ç¿ ©
èį ¯
å¿ĥ äºĭ
æł ĩ
æł Ĭ
æİ ¥
åĴ ½
èĻ İ
çĹ ´
å°ĳå¹´ æ¸¸
å¦Ĥæ¢¦ ä»¤
èĵ¦ å±±æºª
ä¸ ĥ
ä½ Ľ
ä¸į é¡»
çº ¿
å¿ ħ
æĹł å¥Ī
æľĪ ä¸ĭ
æ· ĺ
æľī äºº
å· ®
éĻ ¶
èµ ¢
è°ģ çŁ¥
æĬ «
åįĥ åı¤
æĭ Ľ
ä»Ĭ å®µ
é« »
çī ¹
åģ ļ
åĶ Ĳ
ä½³ æľŁ
åķ Ĩ
æ»¡æ±Ł çº¢
å©µ å¨Ł
Ń èĦĤ
æľ µ
æĹ Į
å± ħ
éĥ Ĭ
å°½ æĹ¥
èĥ ŃèĦĤ
æ´ ¥
éĴ ĵ
åĳ ½
çģ¯ çģ«
æµª æ·ĺ
åįľ ç®Ĺ
ĺ å¾Ĭ
åį ³
å® ¾
æĿ ¿
æµ ¸
ä¸į ä½ı
å¾ ĺå¾Ĭ
æ± Ĥ
åľ £
å¹´ åįİ
éľ ı
æŁ ¥åŃĲ
è°ģ å®¶
æ¢¦ åĽŀ
çĶŁ æŁ¥åŃĲ
æ¶ ¨
ç¼ Ī
è¿ĺ æĺ¯
åĩł è®¸
ç¦» æĦģ
åĳ ¨
èħ Ĭ
æ¯ ı
çĳ¶ åı°
æ¦ Ń
è¿¢ è¿¢
æµªæ·ĺ æ²Ļ
åįľç®Ĺ åŃĲ
æĥ ¯
è¡ ¨
åº ľ
èµ ĸ
æŃĮ å£°
åł ķ
æĺİ å¹´
ç« ŀ
æŃ¤ æĥħ
åıĪ æĺ¯
éĺ³ åħ³
æľĽ æ±ŁåįĹ
æ¡ĥ æºĲ
éŃ Ħ
æľ± é¢ľ
éĤ£ åłª
åĵ ģ
å® ½
ä¹ °
ä¸į åłª
çº ¹
éĺ ¿
éħ ¥
èĪ į
åįĥ éĩĳ
æ¢¦ éĩĮ
æĸ° å£°
éĩį éĩį
æł ¹
çī Ľ
çª ¥
çĲ ¶
æ¨ ½
éĹ¨ å¤ĸ
èħ ®
çĳ Ł
çł Į
åĺ ī
ä¸į çĶ¨
ä¸Ģ æĿ¯
å¦ ĸ
è° ·
éľ Ħ
å· «
æ¬ ¡
æĺİ æľĿ
éĿĴ æ¥¼
ç¼ ¥
âĸ¡ ãĢĤ
è¿ľ å±±
çĲ µ
é© ¾
éĴ Ł
åıª æľī
åıª æģĲ
æĬĬ éħĴ
æį §
é¼ İ
çĴ ĥ
æī¬ å·ŀ
è°ĥç¬ĳ ä»¤
èµ¢ å¾Ĺ
å¹ ¿
å¿ Ļ
éģ ¿
æ¸ħ æŃĮ
ä½ķ å¦¨
æ¢¦ éŃĤ
çĥŁ æ³¢
èĥ §
ç« Ł
æ® ¢
çģ Ń
ç¼ Ģ
èı ±
æ¼ ¾
çĻ½ åıĳ
èħ ¾
ç½Ĺ è¡£
åĬŁ åĲį
çĲµ çĲ¶
ä» Ĺ
é£İ éľ²
æĺ¥ æĦı
æĺ¥ åħī
ä¸į å°½
å¦ Ĵ
æĹł ç©·
éĨ º
éĢ Ĵ
éĽ¨ è¿ĩ
å£ ģ
èį Ĵ
æ»¡ åľ°
åħī éĺ´
ç¦» æģ¨
èħ »
æļĹ é¦Ļ
åĸ §
å¿µ å¥´å¨ĩ
å« Į
æŃ¦ éĻµ
å¥½äºĭ è¿ĳ
ç¤ ¾
ç¼¥ ç¼Ī
è ļ
åį ĩ
å® Ľ
åħ ¼
é£İ ç»Ĩ
æĺ¥ å½Ĵ
è¡ ®
è¡ Ķ
æĹł ç«¯
æģ ¶
é¸ Ń
èİ ¹
å¦Ĥ ä½ķ
çĥŁ éĽ¨
è¥¿ æ¥¼
ä»Ĭ æľĿ
éĩį æĿ¥
éĩį éĺ³
è½» å¯Ĵ
é»Ħ éĩĳ
åģ ¥
é© »
åĩł åº¦
æĶ ¹
çļ Ħ
æĳ ĺ
èķ Ļ
æµ· æ£ł
çº¤ æīĭ
èĲ§ èĲ§
æĿı èĬ±
è± ¡
é¹Ĭ æ¡¥
é³ ŀ
ç ±
æĸ Ł
éĹ º
è§ ¦
éħ ¬
çº¢ ç²ī
æ² §
éĻ ĩ
è® ¿
ä»Ļ æŃĮ
ä¸ĩ äºĭ
éĹ² æĦģ
åģ İ
æİ ·
æĿ¨ èĬ±
çİĭ åŃĻ
é ī
å¤ ¸
å° ¤
ä¸į æĸŃ
ä¸Ģ çķª
å¾ Ĳ
æĥħ ç»ª
æĭ ¨
é£ŀ åİ»
æº ¶
ç§ĭ æ°´
æĹ§ æĹ¶
å¸ĺ æłĬ
æ¼ ł
